***** WI *****
10001111
10010111
10110111
01000101
11100100
10010010
10110100
10110001
01101100
00011111
01111100
00110100
10001011
01100101
11000100
00100111
00001001
00011000
01111100
01110011
01100101
10111001
00101101
00011100
01110000
10000101
11101100
01010010
00010011
00010010
11001111
11100111
10111010
10100011
00011010
00101110
00011101
01011001
01011000
10100010
00010000
10010101
10001100
01111011
01010111
01111110
00111011
10101010
00000101
11100111
10001000
01111000
11110010
00011010
01011000
10011100
11100010
10011011
00000000
00000111
***** WH *****
00010011
10101010
10001010
10001110
10111110
10101001
10010111
01111101
10000111
10110110
10110000
01111011
01110001
00010101
01110000
11010001
10000001
11101111
01001000
11101110
01010111
10111110
00000011
11011000
01101101
10101100
01001100
01101001
00110010
11110000
01101110
10110010
00101101
11110110
11101011
10010101
01001000
11001011
11100111
00100110
11011011
10010100
01111111
11010001
01010111
01011010
00110010
10101000
10101001
10101100
01111011
10101000
10001001
10000010
10011110
00011010
01001011
01111011
10100101
11011111
01011101
10110001
00101001
01011011
01100100
00000001
01010001
10010010
11011101
01011001
10111100
10101000
00010111
00111010
11010011
10110010
00000010
00000110
00111111
11010100
11110011
10000111
01111111
11100010
01111111
11000010
00000101
01011010
00101011
11100111
10011110
11010100
11110000
11101101
11011100
11011100
01111000
10110010
10111101
01111111
10001100
00010011
01100110
00110010
00001010
00110100
01010001
01100100
10100101
11001110
01100100
11011100
10101001
10100000
10000100
10111011
10001010
00101001
11011001
01011000
01000010
01011110
01100000
01101000
01100010
10111101
00110011
11101111
11101011
10101110
11000101
00010101
01000000
11011000
10100010
01100100
00011001
10110111
11010001
01000101
10110110
00110101
00101011
10101001
11110101
01111100
00000101
01110100
10100000
10101111
10010110
00011011
01101011
00111101
10000011
00101000
11111100
01001110
10001111
11011000
11001010
01001111
00111111
10101001
11000110
01100111
11010000
00010101
00111100
01100100
11101111
10001010
11110110
11101011
00100100
01000110
00111010
11000000
00010000
01000000
00111001
00010000
10011111
11101110
10100110
11101010
11100100
01001110
01100010
00111101
11001011
00001101
01111011
11111110
01001111
01100100
11010011
10110000
01111100
11010011
01110010
10001010
01100001
11001100
01010010
01110100
00010101
11011000
00111001
11000100
01011111
10011110
11110100
01100111
01100000
10100010
10000001
11011110
11100001
11101011
10111101
11000101
00001000
00011110
01001110
01010000
01011010
01101101
01100100
00011111
10011111
10011100
01010100
10101001
11101011
11100000
11011100
11100110
01110101
11000110
01110101
00100100
11100001
01001100
00101101
01010000
00001011
10001111
00111111
00110010
00101101
01001110
01100011
00101110
00110001
10001111
11000001
00101010
00101100
01110010
11100100
00100100
11000011
01010110
01100110
10101011
01101000
01000000
01100001
00111000
11010011
11100100
01101000
00011110
10011001
10101101
01000011
01101001
11000011
01010100
10011100
01010100
01101001
01101010
01001100
10101111
11111101
01101001
00100001
00101010
01100000
10010100
11011000
10000000
11111000
11100101
00000110
01000110
10011111
00000010
10101101
01111001
01111101
11000111
00100100
00001101
11100001
01010101
10111101
00000100
10010011
01101110
01000111
11111001
00000110
00000000
01010011
10000010
01000010
10000011
11011110
01111101
00001110
11101101
11001100
01101111
11011011
00111110
10010101
11001110
11100100
00011101
10100001
10111110
10000111
11001100
01011011
01000010
01001111
10111000
10111001
10110000
01111111
00111111
11001100
11001001
10111000
10011010
11111001
01001011
10001100
00111011
10111001
00010101
01011111
01011001
00000010
00111000
01011011
11100010
01000000
01000110
10100110
11000101
01000100
00000100
10011111
10001100
10101110
11110100
01100000
00010101
01000000
11111110
01011001
00011111
00101010
00111111
00100101
10100000
10001100
10111111
11010101
11000001
11101111
01011001
11001101
10001011
10110000
10110101
01110100
01001111
00010100
00001110
01010110
01001101
10111011
00001010
10011100
10010000
01111110
01111110
10001001
00001100
11111011
10011001
10010101
10001110
01000101
01100000
10101110
11010110
10011111
01100110
11111100
01010000
00010001
10001100
10100001
11100010
00010101
10011110
00100110
00011111
00000111
10101110
11000000
11110011
00100000
00000101
11011111
10011111
11000111
01110111
10000010
10110001
01101111
11010101
10000100
01011011
11000001
10000000
00111110
11101011
00110010
11110101
01111001
10100011
01000111
10101100
00111010
00011010
01010101
01101011
11100011
00100000
00000000
11101101
00001000
00100100
11000001
11101100
00100011
10111110
00001001
10101010
10111011
01110111
00101110
11000110
10001111
11001100
00111111
10111001
00001100
01111111
10001010
10110010
00001011
00111111
00001111
01111011
10110011
00100010
00100111
10011010
10000110
11111011
11110111
11101110
11101001
00001000
01001101
11111010
01111001
10100101
10011010
01010001
00110101
10011010
00010000
10001000
01010000
00100001
10001010
00010011
11111000
11110010
00011100
10101111
11010110
00100111
11001001
00101111
11011010
10001110
00010100
00100111
01011111
10101110
01101011
11111110
10110001
11001000
00100110
01101100
11111100
00110000
10011001
11011011
01000000
11101101
11111000
10010011
00011011
01010110
10110101
01001101
11110000
01001111
00001001
11110001
01001110
10111011
00011000
11100000
01100100
10010000
00110101
00010110
01011110
00100110
11100001
11011000
11011011
11001110
01011000
01111000
10010010
10010000
01100010
11101110
11010001
00100010
00110101
10111000
00010011
00011100
10110100
10000011
01110101
01011100
11000011
01010010
10100000
00011001
11011111
00101100
10010101
11101111
01011011
11100111
11100010
01010000
01011011
10000011
01011101
00101101
00111011
10000101
00111010
01000100
10011000
11011010
11000000
00100000
10110100
01100111
01100111
11011110
00001010
01111011
01010000
00011000
11001011
10000000
00001010
01010111
00110001
10010110
11011111
00100011
11111000
10101110
11111110
01010010
10010001
00111111
11111010
01000111
00111001
01001000
01101101
01000111
00000101
01101110
10101000
10010110
00001100
10101011
10111110
00100110
10101111
00011110
10111100
11001010
10011011
01100000
10010111
01001001
00101011
10100000
00111101
00010100
11101110
00111011
01011000
11110110
11101000
11011011
01111010
01101111
11010101
10111001
01110001
10001010
11100110
10110111
01000001
11101101
00000000
10110010
11111101
01100111
10101100
00100110
00001100
11011111
00000001
01001100
00011101
00111011
10000010
00011000
11101011
11011011
10100001
10010000
00001111
10111100
11101100
10011001
10000000
00000011
01001110
11010101
01001101
01010011
10111100
00100010
00110010
10110011
10111011
00001100
01011011
01011011
11101111
11101011
10000111
11011100
11110010
11000001
00110011
11010001
00111001
10100101
01000001
10110001
01010000
11111111
11111001
00010101
00001111
11101011
10010000
10110011
11011111
11000100
10000100
01010101
11111000
01111001
10111111
00010111
10001011
01001010
00011011
01101101
00101011
10101000
11010101
11101001
11100000
10011010
10000100
00100101
00010100
01100111
00000100
01001111
01011101
10100111
10101111
00001100
01101100
00011011
01000010
11001110
10100011
11011011
01110111
00101000
10000010
11110110
01110011
01111110
11011010
11101010
01010111
11110001
10000010
10111100
10001000
00110101
00000101
00111111
10011000
10100100
10010010
00101101
11011100
11001001
11111011
10101100
01111001
11000010
00110111
11111011
00001001
01001110
11011100
01101100
10110001
10100100
00011111
01011010
11110001
11101010
01011111
00110100
11111111
11111001
11111001
11100101
10100011
11000110
01001110
10111001
10110011
11000010
00001101
00011100
00001100
11100000
10110110
11111000
11010110
10101110
01001100
00100100
00100001
10110100
11110010
00000011
00101011
10000000
11111001
11110010
00111110
01101000
01010101
01111101
01000100
01100111
10101110
01001000
00111111
00110101
10010001
01101011
01101011
01111011
00011110
01101010
01011100
10000001
01011010
01001011
11010100
00111001
00101100
10001000
10011011
10001111
01010001
11110100
10001100
01000101
00011001
11010111
11111011
00000111
00101001
01011000
00110111
00010011
11100101
01111000
10100100
00001001
10101100
10111101
11000010
10000010
01110100
00010100
11001011
10000110
11110100
11100010
00011010
11010000
01111010
11001111
01101011
00111110
11010001
10111010
01101100
10000101
10000100
01111000
01110101
11110011
11101001
10001110
10101101
00010100
10000110
11001001
00110100
01100110
01111010
00101011
00111011
01010011
11000111
11100101
10000011
01000101
10010001
01010110
00011111
11001100
01011101
00101001
11000011
10011010
11111110
11101101
11001110
10011011
00101010
01101000
00000000
01110110
11011111
11011001
10011100
01101010
00110011
00010110
10100110
11101101
01111001
01010110
00100001
10000010
10111010
11110110
***** WO *****
01100000
00011111
01000101
10101110
01001110
10111111
10100011
11101101
11001100
00011011
01011110
00010101
10100111
00011000
00110100
00100011
11110000
00101111
11001100
01100000
11001110
10101001
10011100
01001001
00001100
11101110
00111011
00011100
00011101
11000011
01001100
